FEF
053
FB4
FB4
F66
32B
F0A
F5A
FBE
BC9
035
010
FEC
16D
049
F43
F91
C2C
F7C
F9C
0DC
259
04B
F08
FA4
243
05B
06B
F72
F21
F99
F0C
F88
BF1
006
F87
08E
005
FEF
FB1
03D
C2D
FCE
FC9
FA0
C0F
F84
FA4
086
FEE
F26
FBA
F42
BBE
000
07D
0E5
26C
FA1
FFD
0B8
219
069
FF1
