098
F67
F8C
F87
DB9
D01
D94
F6B
4DE
F74
066
0A1
EB8
007
0C9
EB6
37E
04C
078
00C
FCE
FE8
099
F48
E5F
078
0DB
E80
FD9
F5A
0A8
08C
3F2
FCC
00A
02C
F5B
F2A
F86
FF0
54D
FA7
0C3
FB6
3E4
03C
000
065
F66
FE8
F6A
F26
486
FD2
089
040
F11
074
058
F57
EB2
09D
028
FDF
