06D
7B9
0BB
7D8
089
0E6
78E
05B
741
5B0
070
030
6A0
1C0
7C9
702
7A6
595
0A2
0D8
72E
14F
6FA
6F6
652
09E
665
770
73A
79D
001
04A
024
539
067
7D7
73D
7D7
0B5
06D
076
638
7C0
094
7E9
5EC
0AF
075
09E
055
09E
754
7F4
595
0CF
751
6B1
215
72B
665
627
20E
6CD
68E
