F30
F42
FC1
F71
695
052
F99
E42
B24
0C9
0EC
F92
34A
EE8
049
0C7
9FC
0A7
129
FC1
2CE
E79
032
0A9
2C7
EEF
027
009
F75
F94
FE0
028
A6E
043
165
035
0D5
FF4
FD0
F49
A25
F5C
0E1
FA4
949
FD6
194
059
08F
FAC
F0C
024
A37
FC9
111
F81
308
EC4
FC0
107
3A0
FA6
0A5
0AA
