21
03
46
0F
06
1E
02
10
F8
FF
F2
FE
FF
04
00
03
20
04
47
E6
02
01
01
06
02
04
03
07
07
FC
F7
05
F2
06
F1
EB
FB
03
F5
FD
FD
06
04
08
FB
01
FA
F8
F3
FF
20
F3
07
08
03
0D
01
08
04
07
05
FC
FB
FF
F8
05
12
03
0F
11
07
14
06
04
E8
07
05
00
11
FD
FA
01
17
F9
04
04
F8
08
00
FD
FD
0B
F4
03
FF
FA
13
F9
20
0D
00
01
06
0C
07
F9
F3
FE
03
00
FD
02
02
06
09
0A
02
0A
04
06
0E
FC
F2
FE
0A
00
06
05
10
00
2E
EF
FF
25
F6
00
F9
FC
F3
01
01
08
FD
03
29
FC
31
E5
01
5F
04
08
FD
04
0E
0E
0D
FB
00
07
EC
FF
FD
F5
05
E9
F5
05
05
04
04
03
FC
F5
03
FB
FB
07
19
F3
00
0C
00
04
02
FF
FF
0D
FC
05
FC
04
F0
05
E4
09
0B
17
FB
12
0A
05
FB
01
01
01
0A
FD
FB
FF
08
F4
02
14
F5
FA
FA
FD
02
FD
FD
FD
01
02
00
F9
D9
08
F9
05
02
FF
00
00
F8
04
02
08
02
FE
08
00
DB
0B
FD
08
09
FE
01
FA
00
01
0A
01
09
06
15
FF
1F
DC
FB
1C
F9
01
FA
07
F4
FC
09
FF
FE
FE
19
FF
21
F4
FA
6E
02
0E
FC
F9
0A
18
0F
04
FB
06
F9
FE
FE
F7
03
E6
F8
F9
FE
FA
06
FD
FD
FA
07
FC
FD
01
0A
F1
01
12
F7
05
00
03
00
0B
00
00
04
00
F9
01
F1
FE
06
17
FB
01
03
06
0E
05
02
01
0C
02
00
02
FE
EB
00
09
F9
FB
05
06
00
FE
FC
FA
04
FE
00
FD
CF
04
00
02
01
F4
F7
01
01
02
08
04
01
03
0A
05
EE
0C
FD
05
06
F2
F9
00
0C
02
02
0B
04
04
15
07
F4
E4
07
0A
FD
01
FC
07
F5
F6
03
02
02
FD
FE
F9
17
EB
03
65
0F
16
FA
FE
07
11
06
F9
FA
15
FD
FB
F9
F5
06
F3
00
FC
07
06
00
00
F9
FD
07
F9
02
FD
F9
E5
00
0F
03
F9
01
FA
FB
FD
03
04
06
FD
04
02
08
06
FE
0B
00
F9
F2
FC
07
FE
00
00
FE
00
07
07
E5
E9
FB
05
08
FD
04
06
FC
F4
0A
FA
04
01
FF
FD
F6
09
FF
F0
07
F5
F9
F9
F9
FC
01
08
00
FF
03
FD
09
02
F8
EF
03
E9
01
FF
06
03
03
09
F1
02
1B
02
81
EC
08
FA
04
F3
01
00
EB
FE
0C
F8
00
FF
EE
03
02
F3
01
68
0C
1D
F7
FB
0A
0B
0A
F8
F9
10
09
FB
ED
EC
04
EC
00
FE
05
FA
FF
F5
FA
F5
FB
FC
11
03
DA
E4
FE
FB
FE
F9
FB
04
FE
FB
0E
FA
FB
00
05
0A
18
02
F2
DB
09
F3
F0
04
F4
06
04
06
F0
01
11
01
C8
EB
03
E2
03
FA
00
07
FC
F4
0B
FF
05
08
F9
00
0F
0A
F9
E5
04
04
F3
FA
03
06
08
01
EE
09
E6
FF
1A
0C
F4
C7
00
FB
FF
FF
F5
FF
03
06
D6
08
