0B
D5
5C
E8
42
FC
E1
FD
4B
F4
64
4A
F5
56
EE
E7
FF
F5
FB
FF
F8
10
F9
F6
F7
0B
05
F9
0A
F2
11
0E
F1
7D
A4
3E
8E
35
35
F6
97
10
91
81
0B
93
39
45
08
0A
F2
E6
F9
F1
E0
F1
03
F2
09
FE
0C
FF
E7
DD
F5
C7
F6
01
06
FE
09
F4
FC
F0
F9
04
FE
FD
09
0C
06
3C
B0
1B
B8
2C
2B
F0
B3
00
B8
B5
FF
AF
2E
28
F2
06
0F
EB
0C
E3
EC
F8
05
FF
F4
FD
FA
FC
E9
F9
FB
11
D4
21
D2
19
0C
F9
CC
FD
DE
D9
06
D2
27
27
F7
D2
08
0F
09
0B
10
0C
01
F7
0E
00
F5
0A
07
03
FA
EE
04
05
F6
06
07
F8
00
FF
FC
F7
F0
00
F9
08
FB
F8
11
05
16
04
03
FE
1A
FC
11
1E
EE
14
FB
0C
0E
F8
08
FC
0C
ED
E2
00
08
0D
FB
0D
0C
0F
F0
E9
F7
F5
0C
E8
01
F2
E4
0A
03
FF
FB
07
F0
05
F4
FE
FA
F4
01
F2
F9
EE
08
EE
F7
FA
FC
F9
FB
09
00
FF
F5
DF
F8
0F
FB
0C
01
03
04
F3
F9
07
03
F7
14
0D
FD
07
04
ED
10
EC
F5
06
FD
08
0B
09
F3
F3
E2
E5
